function [y1,xf1] = best_nn_yet(x1,xi1)
%MYNEURALNETWORKFUNCTION neural network simulation function.
%
% Generated by Neural Network Toolbox function genFunction, 21-Nov-2017 19:11:09.
%
% [y1,xf1] = myNeuralNetworkFunction(x1,xi1) takes these arguments:
%   x1 = 1xTS matrix, input #1
%   xi1 = 1x10 matrix, initial 10 delay states for input #1.
% and returns:
%   y1 = 1xTS matrix, output #1
%   xf1 = 1x10 matrix, final 10 delay states for input #1.
% where TS is the number of timesteps.

% ===== NEURAL NETWORK CONSTANTS =====

% Input 1
x1_step1.xoffset = -0.0163571239227562;
x1_step1.gain = 48.9620663940341;
x1_step1.ymin = -1;

% Layer 1
b1 = [-3.9586954180161724182;8.6847304464966139648;4.8077704624033055225;6.4479238175089879093;-5.4090297338878743361;-1.940044903769517326;-2.5327737045791214321;-9.0379732165821309309;-2.9383940949371001317;-8.8441226197525004693;3.2971386978276555624;2.4949425810949725779;-4.0137269073954158216;-5.9878626782077706281;2.0394427256560363482;1.5663001977909800644;2.6958371331506634228;-3.6242012525792151045;2.5565196671652512528;-2.1138575860657646821;-1.3331399955558356218;2.5792118767859366635;-2.0759278935782643494;-5.5818890270449301738;2.3864074848895517889;-2.8491074136917537984;-0.21042829175990704349;-0.33957960976289852661;0.29680154673175485058;-0.70246320916015070335;-5.1596186419012211033;-0.68719885269143299311;1.4377293692040866713;3.7857632448839031447;2.4511184026563626048;-1.431582104852948234;1.4534252760835910667;-1.9919245072427804732;0.47142378127771222829;-2.6299509191124963436;1.261998362968330456;2.1969557472173297796;0.82932922432173961091;2.2670145911675958494;3.9615045364035488262;2.5057963835974330635;0.75338511689296105978;0.75654512352417246923;-0.54839120795147933141;1.521495708754418974;0.057932193840884521618;0.2743683676805976912;0.39391444245018175652;-1.2349284973459524473;-1.2867275851047936808;2.5437197225128453937;-0.50978345568561400647;0.52557520583944905557;2.2249787092311739123;-1.2989329448183430937;-1.5879502415667385851;-0.19563885762822244563;-2.2368963758574356149;1.9265606159911423667;0.30260594938347806782;0.3630594015933954477;-2.045895891113698184;-2.5049773598186795276;-0.43490248018675981001;-2.6504336777774240019;1.3636291715727311136;1.9859618310450155576;-3.1676384447881287265;-1.7236375326576172107;1.6958388108279329742;1.919660541115114416;0.44232338273311133658;-4.6299601841517459277;-3.3697468661579508264;-0.52661739037325028256;4.8973643539923426005;-4.0097136569091853531;-1.7547580302618801529;2.3147298424810012207;2.9686976691229518543;3.4074962207511161338;-0.73717002329190117749;-2.2695715216839338346;-5.6795920690820009824;3.1408017845926679001;-3.2440076585308128543;2.764808653608838096;3.0874914439349772088;12.403826177330504521;4.857087248929434331;-3.8020155934828272493;0.50027742150787601894;2.0294527423534138855;2.5825856745398301229;2.8094861688408272471];
IW1_1 = [-0.97318531353828918729 0.72654409659499752383 -0.91500882275073702754 2.113211232606197143 1.1737504370358440298 0.88571213108359914123 0.13754116096458426921 0.2582946913009104839 -0.24140487492496318089 1.8022629426806200392;-2.9757745462825915261 -0.67263323885692938298 1.7910350116618365401 4.0217419983618940549 7.0673692561325429651 6.8330280202434483527 1.4493095773136746018 -3.6256894478078192101 -3.97942437776904967 -0.49731315966967792885;-2.3777138623433189402 -1.5552094530108806492 -1.3581067092319638601 -1.4131429292834913891 0.15268806284036470777 -0.30898327784911466809 2.1779445747543606515 2.6811969354538534027 3.490587425069732852 1.7795780233357603173;-3.5455629608599221747 -1.8580464152677802492 0.048958009408727180822 0.50444775132348507185 -0.38302903597750742604 -0.85151516242723623851 -1.8254858181251749638 -0.65083359185067524155 0.41855786233524999718 1.1765198433870049932;1.0237523859334292098 2.4337306642798317569 2.8902968332059728596 1.1179706516564538177 -0.19337124934443081226 -0.83272250312896867186 0.27416442981068883666 0.70801753542318179857 -0.37877174636042731937 -1.6342031709895719072;0.84396505117452147449 -0.66208565621115977873 0.41297868029852574656 -0.98495570198877779866 0.75667196887947418826 0.88975813667746628255 -0.4940516306820383341 -0.91572930802458751831 0.41070655581249432275 -0.39591853059983100893;0.93936895029278233427 -0.88461910000509380581 0.25855563360087741032 0.043522730761798390786 1.0093671048951782243 -0.11633347401969197643 0.43153238536931171065 -1.0784668504441017323 -1.0469188622200473748 -0.18188429502306582841;0.60844177102557162051 -3.0990231801693828295 -3.1953682544095660667 -3.9423583497314571567 -3.4774428700687400884 -0.4980132952323157447 -0.42632853810227699931 -2.7692813005180076935 -0.12521084246037939014 5.94426381010814886;-0.64837820711120230932 -1.5537335677375001541 2.4091523462095563168 0.8055596570556093905 -0.84426656609645278628 0.56466510257426905106 -0.65391870911067018213 -0.023206451922081750699 2.7813114638962184166 3.3709056557668861664;8.7152518984917950462 -2.7118517506967361186 -6.4084723447687981235 -8.8822615505827240412 -0.92730696492510944484 1.0078036035260395931 -1.7536158530943046774 -0.93102706177340810445 -1.8210282499934313805 3.9361650413244646529;-0.9183437032616835749 -0.2675009163003180257 1.1279976976875496497 1.8627896577902136599 1.0175048661919148252 1.3759633643204443043 -1.3919666645289501261 -2.484531658539871124 -2.4369988698772497848 -0.54913252949395952029;-1.0795405389581826938 -0.50051835577605918726 -0.82686784803985580172 -0.59036485309451447456 -0.18804625284212844738 1.0028952185277792974 0.44408967457047571203 0.62885393123808841498 0.39753249472836310607 -0.59103077177581198054;0.32491628074974299167 1.4856480518601196117 1.2426848221860071764 0.3585061587740531186 1.7603388391067753549 2.731862090357906947 -1.4567749892618826468 -1.1418742715282232947 0.48318072433842707003 1.4979465859762659541;-0.66260691666901605501 -2.099087026285693991 -0.72934138535197434727 -0.41637350192655914194 0.54408749616449370023 0.69703078357433989609 0.48069108028446977388 1.4552900660627792195 3.264822633589060441 3.5366867199202172145;0.23479080778057137557 -0.52338830624779020262 -0.28338963472750788863 -0.20085583060664924382 0.21352199568951529818 -0.61991746970691219421 1.1249480640171445334 0.65358544328179613014 -0.26154754639779992376 -1.2252630442549945489;-0.48397173255752728993 0.36124385762423261159 -0.23556651106485226865 1.0550491488869893075 -1.1429556601197232713 0.1740101188488233086 -0.46545519235019017223 1.1059979654309510799 0.58057473091170308521 -0.48318998385742994994;-6.2449885126745003916 -5.7462541366398669496 -1.3657212796208890726 1.474647746951540217 5.4529107787608799285 4.7355900288042267476 5.4607711730903840675 1.9299017292685016756 2.2287660614529460901 -4.9236313470962400629;1.3927509640663233714 0.50722604578316121682 0.69433570196408966879 1.2541270642622932563 1.1351239454345196656 -0.91117240383251030256 2.3869450983426334645 0.42652610931864842758 -3.1954594560964788563 -8.5484712901801636065;-1.2539990744158453495 1.296082844114543553 0.37377355758324154467 -0.88734231486074788275 -0.35347291196681890346 -2.0225523163068355181 -2.9531788292289329334 0.42874724379528794671 1.533605367711979639 -0.26268281851226643608;1.5829929730996470383 -0.70174695779787177319 1.64635824582948187 2.9911311757543352918 0.17784428244959221699 -0.84241167629355517832 -1.6548342582959885139 -0.56040063586278610064 -1.8225127706443466913 -0.12260157704007108859;0.94618378730357255435 -0.21273491738136660056 0.70382213867829879206 0.36135799001802143549 -1.0401350238441779972 -0.01882201364899432211 0.50346038811362248122 -0.18365832377305160716 -0.98859440777471485617 1.1268504151231049093;-9.6035335198727249661 -4.2687766179518442655 1.179496334544424041 2.3810466688392613044 3.4985148057275781142 5.2171326730369713687 6.1052668663463798282 3.214349521455281522 3.0877433943388230553 -7.8715835581856792302;1.3812436056792536387 0.91651338319813757671 -0.39690683758291672723 0.81156768826416370022 0.46680038936866830035 1.2045151419566040296 0.62403849733944516398 -1.1494175517763118854 -1.1506517537345557489 1.7850357466197512846;-5.1670144706351273101 -3.0320768488732872115 -0.44173333541328807517 -1.0025102436869266498 -2.6387029485160931053 -2.9119735631920096175 -2.0722824475334769012 -3.0793950209741218771 -6.7610930683290453302 -10.480673594202180254;0.4769581959972260532 -0.054134720889022394652 0.19694636922523245381 -0.5517578973311949575 -1.4761927012659623593 0.49512917827930136294 0.60975941829438518038 -3.7880221482776987862 1.6174748011741184595 7.5517839835519007252;0.38958484514353325379 2.5332074127406123409 2.3585371603022800002 1.4418954196664077738 0.95320150028344818871 1.8811007092596172541 -1.6143194439189183509 0.15299920787467174987 -1.4424885970255703072 -1.847979219499800152;4.6949693875607803051 1.9223966728266976833 -1.0545973036300755332 -1.0330828664325639732 -0.75907981094719045867 -2.1398666393820446885 -1.5237024409729738039 0.47409934756624694252 -0.33329667698024079137 3.4099655927717762438;1.5603409668815757527 2.0061521104994892717 0.62912761812954254292 -0.22318672497753672124 0.55356192152048389055 0.21580383648631593085 -0.1411382238473850026 1.3482017758041535682 0.32782451092319769836 1.6993203026521095378;0.73531716845418604311 1.1027590524668366978 -0.03342701959019480501 -7.1130402356169204481 -2.1176624693918482123 3.1227771591842587995 0.27703869128319325021 0.59227735164774630849 3.4974364256313483779 2.5930811364933790131;-1.5779250356107490383 0.63519096128405305723 1.427676765610979448 2.2695519915161121993 -0.22058854762291840723 0.6550575871784507509 1.580483714829041153 3.0338847834993134533 1.8886629953298030848 0.81944911798917030588;-6.4838649447849174834 -1.4770473664778940304 -0.95092518439577278233 0.26338149639114899481 -2.449776757288942175 -2.5047292057140677635 -2.0873304449564109575 -3.1966548112916517432 -6.3148788931995536444 -9.9869427297135082711;-1.9499220637110039611 -0.39300548094343051853 -2.0784669219156985953 -1.0977309028259294443 -2.2616225335858981538 -0.79815854769176941552 1.1559488405477778006 -1.5233961414726637784 -1.7711214628517824021 1.0623423329674284155;1.9392308660780885887 -2.8269716698957219059 0.16833035356529840731 5.8681040871810781212 -1.3529594836016651804 -3.7248315906467945879 5.3050468218429225331 -1.3114505147221620085 -2.6839286194062044189 1.0083850626671033712;-1.9908593576311093276 0.58751096214506037807 2.1950644353817425625 1.6680757937679813185 2.3448770530736751105 4.2478787738846115474 -0.2398955852015167145 -0.55325497565153924917 -1.4184851478838822469 -4.1077582606422335942;-7.1150431066364259181 -5.3279625751289234614 -1.6834812561334255854 1.2690495542970390286 5.4423053582660436689 2.7186565259553843177 3.4897270099029129575 -1.2111835116093536691 3.3025694061600314733 3.1574613472755781451;1.2911054478902697085 1.1882104050411075313 0.13829444325449916087 2.0267631523136033778 -1.44369519419659742 -1.6505883112736998708 -2.4910378645955737476 -0.65583092483312055432 -2.6065104387245736639 -0.58350993829462549645;-0.35941348662769206923 1.8208911350244987304 4.4959243030843536459 3.0265505489125472671 -2.0450050862020936471 -4.1675926514573431447 -3.1716847499878095817 -1.4662252037288996398 -0.57302358607192138695 -1.5592239020149500917;-1.7344285979174685064 1.6275097097975055327 1.0995751936447226704 0.87566224591551478085 -3.241354198018449928 -1.743513923102350649 -0.89896440804228816557 -2.5046861100770514419 -1.6863780491040509801 2.7426577916023107129;9.0009476683785685225 9.7812721666734958603 5.8772354679183145265 -1.827143856820517609 0.27165474305366693608 -3.8848356121000233721 -2.3738466854906827841 2.4579700861528044342 -1.4126939372989304466 -13.30162363722780583;-4.9114907807205812063 3.3462436376488753353 11.255315905372615504 -0.33054747626935210292 -14.192581365065866095 0.86600515888708406997 1.7173730544622041183 1.0442939788520790856 1.7094106639248496382 -5.6211678574128276509;-4.275094914653419842 -1.7096789947876180893 -0.34549443313356337226 2.4081776014474187697 1.0914716443854153294 0.036307742810454714244 0.79710639887127054948 0.90377845129064759977 2.6970849410081645381 -1.9991290572560340699;7.144713826126689149 3.3745304394240482893 2.425673572391591204 3.4071170907850851783 2.3482710270060498381 1.7527086467539518821 1.6040584285859114111 -2.0480983523525480017 -7.0172646874024380281 -8.9437768306846834321;-0.33441962965048999123 2.4856187994596878887 2.8623279891971011857 1.5518271687604887621 1.9368458020805421338 7.1777985205930434631 0.90826930865460120401 -7.0479895237800782581 -5.5782379830675274945 -2.7255557547842923505;-13.431675874711714869 -6.3989223323211739114 -2.0022382068169113367 2.7967426975446714188 3.0734259816852742553 4.2373304022199658192 4.5860826792153153164 7.0896786917421277252 5.5769725760751631682 0.31462086424916513305;5.7066558513877874148 2.8254661991894924888 -0.89657390585929752636 -3.5024802528351455244 2.3241158081614665676 1.6304339356192387722 -0.55083332067026702372 -2.4460699559408216608 -4.0731614942480272035 4.906283478952049748;1.1162918192463038292 0.67705923656531064037 1.536016015923868272 1.9036882700349817554 0.25688567695989150685 0.42804910792880007664 1.2167752672904528222 0.99906064537234462453 2.8994113047676268735 3.5298584356504476567;3.6654049510354167474 3.7077537980621895208 2.3932492375538529927 -2.675777681391950491 -1.3219726818671968527 -0.72246364996379575096 0.35213716750216927931 -0.5329930325066094543 -0.1526681011849957692 -4.6267255538658789149;-0.56607351829161822732 2.4607212051674784981 3.8259423906180347608 -2.0831371816708528222 -0.40886322471880331975 4.7444927669397927161 -1.2435840562115492158 0.60455842259444947384 1.8801968322775608478 -8.8841558131895261852;-1.8679908477512059406 0.64738271841333816514 2.2148731507351842041 -0.55955768595733068604 -0.92331556595221009331 -0.042154199103510488211 0.97320882772432770746 0.97958145132291218893 0.42194037721269839203 3.1760129503027019204;6.9143933804071169291 -2.5386407471215184373 -1.4057309158821982287 -0.72794710751614888355 -0.70091250226459178574 -2.2106334423028690672 -1.1403992962698887847 -3.6389226840469137692 1.0797208552747050714 5.4309007172909291583;-1.7615059836737658738 -1.2081601666836490061 -0.4072553003075478073 1.4844927858242844554 1.2567852745089180821 1.9227315193543421667 -1.1190654779945929942 2.4474849197918890908 1.9270645828121357734 0.27480259068955498192;-1.0291132866344061547 -1.6155507292241451101 1.8061126546567425333 -1.9397902997246287971 -0.072301295518573310828 0.31715724280344648189 -3.6544360439790630757 1.6562175377700978363 3.9606944906768690728 -0.52413187189174392788;6.7941909853250264106 1.0469313094838479383 -1.2726133371379837467 -2.9202431821516938726 1.0449761746883881042 0.37149999738640482327 0.58892574508265571609 -1.4787636364741250095 -2.8277215712391390312 -0.70700287961769670009;1.3110315534963241646 2.1276610720532636023 1.7769426552675371411 0.39704941393538345507 -1.4517705255418196231 -2.5709851052695866791 -1.5652181687000765731 -2.610829289922142582 -3.7080593634994789554 -5.7437292331314679927;2.1330384188338920026 -0.13885330369711632037 0.63792167789862563865 0.27873686179489454151 -1.5985447174248668123 0.09933283379580455652 -0.42473786466670704343 0.88882964865449054503 1.6943713873106831524 2.6002506803371985278;-2.7615238922708464919 4.0656690770578398642 1.8589966297387783278 7.0127384754793844479 0.45717645721271432668 0.032528745687426030564 -5.763034082502779043 0.66741377139862123613 0.050581499892833024778 9.1065328230367015294;-9.8997391909370371366 -6.8560538867431954912 -3.1681904557996363181 0.052209441486170800328 -1.06223500573228824 0.14362017158017939544 1.2502865134793759161 -0.44101612812739582337 3.8844056310741219562 11.932783958338296415;-4.0367960026171187948 3.6432779281340335054 3.37144240849581589 5.408080927030245455 10.357224406332072419 7.6391128806843839882 -2.1207316063212244828 -5.9069607670781651976 -7.9639070866305416985 -9.0223220717461263263;7.891714143100376333 4.0765441059507434574 2.8144566916406952295 4.1847784789563462482 1.4478135916302581343 -9.7949494810765003194 4.1835388367695625078 9.3512008907233816757 -1.5432902376923325338 -18.436041130973855218;-1.2921598595984715718 -0.046273327868850175348 2.8437934587907260919 0.4588813859575223697 2.3771360095186411243 -1.900407091520013525 0.26276541535588449072 -0.19631188728679827005 -2.7380347678569951775 -1.4792122837862782259;0.092160013584442743162 0.15706097409043137669 0.47993304209182380271 -0.65603206697131888347 -1.0845615318077639344 0.515191633483064515 0.83829393465840118527 -0.50487125852114644875 0.12687868866303902982 -0.47669289313289953114;0.31590403319107185354 -1.2637418567137281844 -0.87250054701180557171 -1.6741059558702331422 -0.41220133690817906125 -0.82323731047752757295 -0.56186298893771935425 0.13020413521875018326 -0.64204634319007558574 -0.28982785373852076871;-4.8327403736885985452 -1.424396018921525453 -1.5203077872753611999 -0.60834683919530874174 -0.11549233173167287869 -1.8951582123760479792 0.9140287064441935394 1.2247816436207872304 0.62873445813681849703 -3.9401126586165813315;6.3913062650399581344 2.1178111906909302675 1.320266436576051694 2.5038279152092601798 2.9390272164680832923 12.740984307923600483 -0.12835110307512775929 -12.878807492949233549 -11.743708142542732986 0.31770681759698310431;6.7146445969955355082 -0.86477031113074276369 0.120643850962239646 0.88599704022265823866 -1.0803349681918408276 -1.0616082822286234677 1.0228596682274380125 -1.8594298667482449527 -2.8925907515593736186 2.5656432325970803809;-4.8302628014437143378 -3.8529603213090943825 -2.5691564761064054068 -0.73421813548583569897 -0.099245325306584850078 -0.070262517671652979789 -0.23267500498532170394 0.48922946087783214519 2.6516768951384572794 3.8088896330717174621;-11.681723266825811081 -7.8288320732500258359 -1.5997423779973942715 -1.8682197447154269554 0.49870148890413729115 -2.9995469169063087023 1.1674119604119015392 2.663764382599717262 3.4712352694809922582 12.058710980381336597;-0.33370819866639628293 1.7415528744862345256 -6.322902693977058064 3.9503618218610183632 12.74753516942200271 -5.9231275191118308854 -9.509043080280008553 3.4714285945434601999 -5.1420274492920121645 0.48946308637930713292;-2.3676341945641121711 -0.44375491750681456127 -0.18981353100205711204 -0.34269977099240367391 0.91053919598194521523 1.0989805861986983171 3.0033117086922604955 2.213756404641506137 1.5752259135416177838 -6.4913802652613261657;-4.6789464793093706874 2.2122916014026086096 -1.5519245955094680411 3.7345409961712725533 0.72048426324409375887 -1.0451314725055333987 -9.537142904348518968 -1.4450858215476687363 -5.8249011675226345375 2.296414422119553933;0.96455552472297401145 2.1598694519493184529 5.3713725652685093692 2.1177761808337072225 -2.4448039610830312185 -1.8727302030739587657 -2.7255681131486353408 0.88328912153406846652 3.065461639247801795 -0.44893520813701176531;-0.33744271051671886896 -0.71858958240784376326 -1.0328432395823126111 -0.51744460751756560235 -1.1754717780643966218 2.2507896094908730333 -0.3490232551119219484 -3.030097465585147809 0.067994860007118421152 -1.6808875091229171783;-0.27495584313396392862 1.9164015018961702008 1.5303037351676300748 0.66154833234454446522 -0.89827088061014914722 0.98788345444344771717 2.1786287539190176687 0.20693185888700313391 0.6573838686492871064 -1.123648561185052186;-2.1405743936908816494 -5.6889101199327605229 5.3092542296834253079 5.752858472001832979 -4.2178668873958180541 -4.5520340079166921043 4.9675722005698661476 -2.6776339663639863176 1.1811546459889439298 -0.4700023737951299907;0.79921800388319019781 -0.57564664937645204645 -0.71806426467167472349 -0.22913989638502876844 -0.73382201449029016427 -0.30574558803487178471 0.78644743063753297374 3.5022743917281844439 1.4083513058128152018 -2.7317978592141107796;5.4463155506888103474 -2.0015015731207594918 -1.2843512201254221328 2.2867246642243355126 -0.7608289507909179461 -2.1836667499665565195 3.3610301685609700328 -0.64671710456859654581 -5.2118177584203344566 0.4333112839500297131;-5.0827691659274947256 -5.3088737307841178392 -3.649459806677167073 -2.2015014757338207119 1.1067805657101601469 4.5116153933132663312 3.5614206979916942508 3.439807652642435265 4.5511456901155575849 4.8467526165317353914;-0.17158090003231521448 0.65555180526989109691 1.3272687906891016407 1.4232359781198919979 0.48224882967984050719 1.5238360816689953126 1.0352979305827376688 0.98186761424615109917 -0.16138954833842986125 -2.2605422440496569791;-3.5589611028681509275 -2.0605319955504501905 -0.48876304932049469132 -1.2646400432268556369 0.91802850774389332944 1.2078260243854175293 0.13534588935589975112 -0.33527438289915856284 1.3444989644869664858 2.1223195776212913088;-6.8551695445089535497 -2.1238595534048831937 0.099483980494377066695 -2.4389642381758340761 -7.8419068334875374759 -4.7577273400411126403 1.6868605312730247103 2.3238516964939646137 7.8867872256706581524 9.3352008205767820215;2.2442299944298556014 2.1038470483112781118 4.3723483498598900709 -1.1482989868747044415 0.12582647275027733502 -0.82434445940965928035 -3.011720044259631468 -1.9593187791450872304 -0.74205407263572631393 5.9800460133238040328;7.5444836736146134726 -2.8142825566948763694 -3.4492987400307044688 -5.1666747662080121373 -2.3517345087728540598 -2.8264041377093587215 -2.1756601942068791722 -3.5895957968670240135 1.9248594033758099631 9.4411621481769731901;-2.9084937179801486629 0.80137629098494589375 -0.11079143313771572243 -0.99501070783508960282 -1.5260960407817281137 -0.7808489970410312786 3.4800260702434258064 3.5474471497989146229 2.4974704646190257762 0.5591998619357571032;-7.2577165609447460426 5.0013888656449498882 3.4738603567171884023 4.2041679108984375546 -1.2149172697588668246 -4.203529088862624441 -9.1673224084900351016 1.0341884818464919249 -0.40469679439325778603 12.608640117655124158;-3.8246883014417707436 2.4453725683028810778 9.2211216967052767046 2.4974236586796170201 -1.1833215854101390985 -4.7473876796904512787 -3.5724893359063374376 -0.46077805612648292666 6.07918890923624744 -0.34450631037481593832;-0.95406630446003271029 1.2215208382745583737 1.7095014816550879733 0.67478210509280212026 0.95871856390107434986 1.4074016198690180168 -1.032290269277636785 -0.71505935483661398067 -3.1372769141362431 -3.7589216670548823984;1.0793186811858144214 -0.40111659062945914656 -1.0584805909312384742 -0.079779036855769550063 2.1250193328678577132 2.8677555180302674032 2.271497305630292729 0.44351231059860024564 0.084716200166554442297 3.1397285648817372383;4.0639714660849675099 -1.1200991880874899831 -0.80344517522397362885 0.073779033840150554102 1.3599069393701948005 0.80885676406717454956 1.1612354266755424703 -1.1374408774377928744 -3.223145271536716816 -5.2271752151353716442;-8.4391376088594665106 -0.20814068838808688633 3.6732493860803283603 4.129545811524767629 -2.4940627517003681746 -0.21917512522968224387 5.706885663640849593 2.6863182405099754746 -0.82554140004626952454 -11.561678365136046409;-1.001231710163573041 0.41496607031369020513 0.80102305836762199842 1.1590023114341838628 0.67870337753134257763 -0.50909290565021070307 -1.0120828275148652242 -0.18579345917129905241 -1.0048269361159138935 1.1544201278788046583;-2.6012528981016447283 0.75944239553861625502 0.89193361532130521763 0.67788583851341022157 -0.81104760162984057548 -0.73771520277882829397 -0.73404235836008957516 2.017217251036516501 -2.2276849895652564015 -3.1873707425373347668;-2.9106645557593875395 -1.9053183756253231351 -0.70360010039671017079 -1.1085794705179112807 -1.6331309390287951366 1.3504786485518656125 -0.35529954447515399441 1.4876874388973699848 0.61375882387593128087 -0.0078389197850151186298;-0.053473255664353604166 -0.97395290745526208465 -0.57547112488065310654 -1.5561388762676471309 0.27464084895858281721 0.26404620745424800532 1.1573050302161036473 1.0377903322794768126 1.7362277193833228761 -0.10892909812895242017;8.5378175407530907393 5.5588874495855336022 1.0753403298440753488 1.006527942915005136 0.41255541688520658283 1.1163114537128995263 1.8851948567308223215 3.6618477503598363398 3.7934207980361356327 8.1063029639587469433;-0.89061799723057755163 0.98787185385306530705 4.113459833778924768 1.6812045292842170419 2.3818211516793064142 3.232617744656168135 2.6170644653505763522 -1.6271058104259892296 -2.8828157527188706943 -4.2415781144872530817;-1.2656924636334454526 -0.60072527326607316756 -0.577757828098100501 2.7159979902150324094 3.0987668050334686853 3.0606802322597039812 0.71602164159418046907 -0.57873450497222334032 -1.2141801471412736468 -2.958434201086773907;4.4803966370673045105 -0.55601259948683434686 -1.02491806470657143 -2.2700629481457621495 0.079632988193027887114 0.1089013786976606446 -0.3410987969230270811 5.1528951873329313926 3.4103422926190614106 -8.605959966795177607;1.9214081599748560336 0.06348187118833555076 -1.1197255136079546922 1.1976636184709414934 2.5727155845040048376 2.2521640747175606379 0.067119309982270933257 -0.95600715014858095309 -0.85845412748982063977 -1.3910600722081245539;0.58811479404158317763 -0.002707902932980368188 -0.3604947791423689929 -1.3939829180452212309 0.74336007925685998465 0.51505004233201479025 -1.1012574413109754712 -1.0999026788745089878 0.4910585229736088575 -0.93992209259797576681;1.5727269220388910842 -0.53486552846964685592 1.2108347209920780063 1.4187705452684675755 -0.12736051375539428343 -0.021036937232681560128 2.1382191138306225753 -3.0129251470885511921 -2.8667297735900412192 -2.1637331694050860875];

% Layer 2
b2 = -0.75896327512535577409;
LW2_1 = [1.9818354193790728157 -7.9064410262929891715 -4.879516528160941391 4.088658726424132972 3.0804001666857590003 0.21254871503420205703 1.5983719409115844101 2.6526596067106491539 3.0754900160589819791 -8.9347070106960906344 4.1708908245501401524 0.30047061451209278182 -2.0588410281949216518 1.4834992762017491508 -1.2284621716403121283 -0.21010179835962994321 8.3315920698644561071 2.7358507236161857534 4.4159734438894560071 -3.0790131706749450657 0.48222390453237257146 -6.3250608056867099194 1.9664989582770076026 1.6016235833758096785 -8.7487344676396805454 -2.8803123546469078242 3.5674633383735869785 -2.2956736350129576252 -3.9848873036483425381 3.3457823620318571933 -1.7926163409112942926 1.3860778201979122581 6.6901115278368417094 6.6310233089563102027 1.0615337726694205056 -2.5159060791947354119 -4.1169287853183273995 4.6149503584730409145 -3.5632492922697109883 -6.3595959449901631189 -4.5332782419196577806 -13.30443313848173581 -7.8898228241480943268 0.41034826339243024584 -8.1397927738448601076 -10.886467782765151924 -4.3965880545412403535 8.2557651455599430079 5.8167577409092050544 8.2325642263534959397 -2.2680866412082849592 4.8878923546497121677 7.5655220634633577603 -0.33756706183532259047 -1.523206502124115902 5.3886915535968844537 -5.177320703511631983 1.5364845164468643457 6.6755905666761563566 -4.2806615226594768586 1.6442360524343864192 -2.5131725894077976413 1.2906799448480146264 9.3872752068408704673 -2.0124231506556422566 -0.3216284791786701569 0.89548152547078896379 -7.9550853622542305743 7.0251080355224626572 -4.8952006871586686287 2.8708827517276120922 2.5731567852624346315 3.1322653176161314725 -9.2782242963051793083 -2.9552810520831966912 6.3987396587695215544 0.63711211277286849963 2.4525182839318198091 2.8846855688302559528 2.2944574611406731712 8.1685487454295770959 6.498561344052369293 -5.025763784378729504 6.0907899985172653246 4.9573451482511519117 3.6424952685215497006 -3.6969233600768283132 6.5518298366027440949 4.6421901468557527082 -2.5772068500721849738 9.0686905167560585284 -3.0660992422747477271 -2.2112913784807313178 0.14812308839973425956 4.4251595440311852769 -5.1860120493581058909 -6.4863985858280388541 -4.8487827606807476499 -2.2910515920395577716 -5.8151674825067773966];

% Output 1
y1_step1.ymin = -1;
y1_step1.gain = 76.3031493993439;
y1_step1.xoffset = -0.0210973751047318;

% ===== SIMULATION ========

% Dimensions
TS = size(x1,2); % timesteps

% Input 1 Delay States
xd1 = mapminmax_apply(xi1,x1_step1);
xd1 = [xd1 zeros(1,1)];

% Allocate Outputs
y1 = zeros(1,TS);

% Time loop
for ts=1:TS
    
    % Rotating delay state position
    xdts = mod(ts+9,11)+1;
    
    % Input 1
    xd1(:,xdts) = mapminmax_apply(x1(:,ts),x1_step1);
    
    % Layer 1
    tapdelay1 = reshape(xd1(:,mod(xdts-[1 2 3 4 5 6 7 8 9 10]-1,11)+1),10,1);
    a1 = tansig_apply(b1 + IW1_1*tapdelay1);
    
    % Layer 2
    a2 = b2 + LW2_1*a1;
    
    % Output 1
    y1(:,ts) = mapminmax_reverse(a2,y1_step1);
end

% Final delay states
finalxts = TS+(1: 10);
xits = finalxts(finalxts<=10);
xts = finalxts(finalxts>10)-10;
xf1 = [xi1(:,xits) x1(:,xts)];
end

% ===== MODULE FUNCTIONS ========

% Map Minimum and Maximum Input Processing Function
function y = mapminmax_apply(x,settings)
y = bsxfun(@minus,x,settings.xoffset);
y = bsxfun(@times,y,settings.gain);
y = bsxfun(@plus,y,settings.ymin);
end

% Sigmoid Symmetric Transfer Function
function a = tansig_apply(n,~)
a = 2 ./ (1 + exp(-2*n)) - 1;
end

% Map Minimum and Maximum Output Reverse-Processing Function
function x = mapminmax_reverse(y,settings)
x = bsxfun(@minus,y,settings.ymin);
x = bsxfun(@rdivide,x,settings.gain);
x = bsxfun(@plus,x,settings.xoffset);
end
