function [y1,xf1] = egm_egm_ar(x1,xi1)
%MYNEURALNETWORKFUNCTION neural network simulation function.
%
% Generated by Neural Network Toolbox function genFunction, 23-Nov-2017 21:23:50.
%
% [y1,xf1] = myNeuralNetworkFunction(x1,xi1) takes these arguments:
%   x1 = 1xTS matrix, input #1
%   xi1 = 1x10 matrix, initial 10 delay states for input #1.
% and returns:
%   y1 = 1xTS matrix, output #1
%   xf1 = 1x10 matrix, final 10 delay states for input #1.
% where TS is the number of timesteps.

% ===== NEURAL NETWORK CONSTANTS =====

% Input 1
x1_step1.xoffset = -0.0183574205575715;
x1_step1.gain = 57.3666784898324;
x1_step1.ymin = -1;

% Layer 1
b1 = [-1.7952206378196600145;-1.3298527382737093117;-0.87976037506296878021;0.29254161035545811487;0.15038400552872843718;0.069360562466430464301;-0.56095400474897705312;1.0460369857562439311;1.4928656712001067142;1.7545513508795720359];
IW1_1 = [0.82460970000124533819 0.12475348385483181479 -0.9218369718590280204 0.36131862469345915612 0.41300467143314123497 0.63013029226300099062 -0.42424122852704526654 -0.75928924632059979771 -0.2036390018648473188 0.052169830679097133064;-0.017823693004953219954 -0.074274911112464800378 -0.5432086196479907203 -0.63367369546930740754 0.043882008821915820251 0.76270945129289013931 -0.77745130105868798243 -0.2301792268065435132 0.74088693785862003161 -0.29833108005225922321;0.38312767902212357951 -0.84118865072814963391 0.37397669710744330107 0.8252478742937028322 0.40347008027786829265 0.44401172931158644497 -0.88496835231876824768 0.14565501533959138158 0.13438338238483302223 0.088997660883753951233;-0.11124876344534775918 -0.81607411795597117887 0.72938807559947715919 0.58867274120351209543 0.3423782542507234905 0.71076383831655332024 -0.19085353405913887959 0.87456209806280704733 -0.015929240995201394276 0.23612376182881841813;-0.50850153562353028747 -0.52885345135130201744 0.65439659735880639779 -0.26279076109713006559 -0.79743493328769310402 0.73094831329682685706 -0.58546033219335458231 0.56947603266515212095 0.19883416655194049993 0.36835191325213062497;-0.64659208070178719741 -0.76376849739953034391 0.66478781147308874111 0.49882169137722925933 -0.18621212127770875311 0.31327444307252722 -0.77980069601425128223 0.42795859826528004355 -0.6185729801460827515 0.6088386269980750054;0.34066154055176034454 0.71349458402445053995 -0.80917958774573905956 0.14946877895129195846 -0.64138501691441485164 0.52000586988974728531 -0.1909013952943473813 -0.29707022392179227577 -0.78997529528396326359 0.8598255059633842512;-0.061499759953149879532 -0.12460857161601660015 0.098523525091689337363 0.99323692280497599683 -0.82658451334201865635 -0.17751390821239723672 -0.27523979142318694135 0.97286734419719522737 0.17853641678130785508 -0.50659521491745507227;-0.015044332776104334115 0.24805926401703873307 -0.78597595340590087343 0.63018925844893014521 -0.10181034856079504425 0.62515667522604601025 -0.87350025571905953736 0.51857204958501701419 0.25071571442166740162 0.41963356793777994991;0.1860856888138046894 -0.57695216806597915404 0.7411657937779012606 0.057004973679841225431 0.5171533563765232655 -0.41448754041176305574 0.73822700326737444865 0.86316821588639636165 0.56278993275596167489 -0.45639494069946201504];

% Layer 2
b2 = 0.28859360811939616109;
LW2_1 = [-0.33991533742096230464 -0.40985154637326742799 0.52162617677084244239 0.085167180309053486242 -0.00080932819756889765733 -1.1429937170553283732 0.87134264757036583582 -0.15167831737863771147 -0.12445636260669454276 0.13799648850914203457];

% Output 1
y1_step1.ymin = -1;
y1_step1.gain = 57.3666784898324;
y1_step1.xoffset = -0.0183574205575715;

% ===== SIMULATION ========

% Dimensions
TS = size(x1,2); % timesteps

% Input 1 Delay States
xd1 = mapminmax_apply(xi1,x1_step1);
xd1 = [xd1 zeros(1,1)];

% Allocate Outputs
y1 = zeros(1,TS);

% Time loop
for ts=1:TS
    
    % Rotating delay state position
    xdts = mod(ts+9,11)+1;
    
    % Input 1
    xd1(:,xdts) = mapminmax_apply(x1(:,ts),x1_step1);
    
    % Layer 1
    tapdelay1 = reshape(xd1(:,mod(xdts-[1 2 3 4 5 6 7 8 9 10]-1,11)+1),10,1);
    a1 = tansig_apply(b1 + IW1_1*tapdelay1);
    
    % Layer 2
    a2 = b2 + LW2_1*a1;
    
    % Output 1
    y1(:,ts) = mapminmax_reverse(a2,y1_step1);
end

% Final delay states
finalxts = TS+(1: 10);
xits = finalxts(finalxts<=10);
xts = finalxts(finalxts>10)-10;
xf1 = [xi1(:,xits) x1(:,xts)];
end

% ===== MODULE FUNCTIONS ========

% Map Minimum and Maximum Input Processing Function
function y = mapminmax_apply(x,settings)
y = bsxfun(@minus,x,settings.xoffset);
y = bsxfun(@times,y,settings.gain);
y = bsxfun(@plus,y,settings.ymin);
end

% Sigmoid Symmetric Transfer Function
function a = tansig_apply(n,~)
a = 2 ./ (1 + exp(-2*n)) - 1;
end

% Map Minimum and Maximum Output Reverse-Processing Function
function x = mapminmax_reverse(y,settings)
x = bsxfun(@minus,y,settings.ymin);
x = bsxfun(@rdivide,x,settings.gain);
x = bsxfun(@plus,x,settings.xoffset);
end
