function [y1,xf1] = nnbest(x1,xi1)
%MYNEURALNETWORKFUNCTION neural network simulation function.
%
% Generated by Neural Network Toolbox function genFunction, 21-Nov-2017 22:09:41.
%
% [y1,xf1] = myNeuralNetworkFunction(x1,xi1) takes these arguments:
%   x1 = 1xTS matrix, input #1
%   xi1 = 1x4 matrix, initial 4 delay states for input #1.
% and returns:
%   y1 = 1xTS matrix, output #1
%   xf1 = 1x4 matrix, final 4 delay states for input #1.
% where TS is the number of timesteps.

% ===== NEURAL NETWORK CONSTANTS =====

% Input 1
x1_step1.xoffset = -0.0177727164798847;
x1_step1.gain = 47.3401672739371;
x1_step1.ymin = -1;

% Layer 1
b1 = [4.9592771290465318401;3.1712020450758697798;-1.1228512791066165288;1.931317933191775138;0.7225483841826085829;1.9658094261161547234;-7.8994787987542283147;-6.1044153374713152616;1.4913756211652737793;22.446304138780121207];
IW1_1 = [15.591380446645617397 -4.4314335945513754211 8.4857062908014011526 -21.258684862475018207;-6.5017776294706361995 0.11938915154652088302 1.0515988479146072265 0.74009205799704236295;-1.0334221658299476143 1.4524379006602419206 0.59522811868363767474 -0.47685920069935316956;18.749966177349769225 -1.2464667564700375735 -5.1703051888342717035 -9.6117767951169650331;-1.8024584423731127014 4.5231849224825859679 0.046245837900444383695 2.2172678612846170587;17.058109720703285461 -0.43436775468968669145 -2.7172530351301422691 -11.36872073938073413;-18.910084783955021237 -10.142797135050320989 -2.3237040345843462674 22.159546748134459904;-12.479636109243459785 -5.2104506720649172991 0.39744565161719613844 7.2330791702540500054;-1.8465581087062818977 1.7008120412690324041 2.2740954869202973931 6.9653948686547089153;40.815292732770210193 13.905668777082128784 -6.2071978603713278133 -21.410636581455122496];

% Layer 2
b2 = -5.4775923935188117753;
LW2_1 = [-1.0907951960425141813 -0.80389621660081933552 -8.7679492898210185103 -5.6975649544650615042 0.91467688794369284011 6.7062966712447247275 1.3102849014755819645 -0.31553150898371207234 -0.45598564028750393495 0.72168600174414554438];

% Output 1
y1_step1.ymin = -1;
y1_step1.gain = 62.0578006700337;
y1_step1.xoffset = -0.0253451394291976;

% ===== SIMULATION ========

% Dimensions
TS = size(x1,2); % timesteps

% Input 1 Delay States
xd1 = mapminmax_apply(xi1,x1_step1);
xd1 = [xd1 zeros(1,1)];

% Allocate Outputs
y1 = zeros(1,TS);

% Time loop
for ts=1:TS
    
    % Rotating delay state position
    xdts = mod(ts+3,5)+1;
    
    % Input 1
    xd1(:,xdts) = mapminmax_apply(x1(:,ts),x1_step1);
    
    % Layer 1
    tapdelay1 = reshape(xd1(:,mod(xdts-[1 2 3 4]-1,5)+1),4,1);
    a1 = tansig_apply(b1 + IW1_1*tapdelay1);
    
    % Layer 2
    a2 = b2 + LW2_1*a1;
    
    % Output 1
    y1(:,ts) = mapminmax_reverse(a2,y1_step1);
end

% Final delay states
finalxts = TS+(1: 4);
xits = finalxts(finalxts<=4);
xts = finalxts(finalxts>4)-4;
xf1 = [xi1(:,xits) x1(:,xts)];
end

% ===== MODULE FUNCTIONS ========

% Map Minimum and Maximum Input Processing Function
function y = mapminmax_apply(x,settings)
y = bsxfun(@minus,x,settings.xoffset);
y = bsxfun(@times,y,settings.gain);
y = bsxfun(@plus,y,settings.ymin);
end

% Sigmoid Symmetric Transfer Function
function a = tansig_apply(n,~)
a = 2 ./ (1 + exp(-2*n)) - 1;
end

% Map Minimum and Maximum Output Reverse-Processing Function
function x = mapminmax_reverse(y,settings)
x = bsxfun(@minus,y,settings.ymin);
x = bsxfun(@rdivide,x,settings.gain);
x = bsxfun(@plus,x,settings.xoffset);
end
