function [y1,xf1] = temp(x1,xi1)
%TEMP neural network simulation function.
%
% Generated by Neural Network Toolbox function genFunction, 22-Nov-2017 22:14:10.
% 
% [y1,xf1] = temp(x1,xi1) takes these arguments:
%   x1 = 1xTS matrix, input #1
%   xi1 = 1x1 matrix, initial 1 delay states for input #1.
% and returns:
%   y1 = 1xTS matrix, output #1
%   xf1 = 1x1 matrix, final 1 delay states for input #1.
% where TS is the number of timesteps.

% ===== NEURAL NETWORK CONSTANTS =====

% Input 1
x1_step1.xoffset = -0.0188342213156272;
x1_step1.gain = 50.7715190315153;
x1_step1.ymin = -1;

% Layer 1
b1 = [14.024842759006990178;10.903407273703052738;-7.8118307563540518856;-4.6551126594547005411;1.7050242449488217655;1.6081839994860813725;4.5118153524654918129;-7.801689008451105245;-10.943652840561105322;-14.036596691499713785];
IW1_1 = [-13.975260935177255206;-13.987534134419851384;13.979648028708199448;14.003539532225493858;-13.982534433149513831;13.989988647066942562;14.04252706297085318;-13.984666817267425998;-13.949814493533901683;-13.964859291344959402];

% Layer 2
b2 = -0.16900568791294023896;
LW2_1 = [0.35671483416503785291 0.0061500375116303298076 -0.073782639292414811671 -0.028795366296679621165 0.16292941713749642396 -0.090983601505752714766 -0.19868815348173943236 -0.024362325848897803393 0.024372164188377742206 0.33368356586766739769];

% Output 1
y1_step1.ymin = -1;
y1_step1.gain = 48.1944532056758;
y1_step1.xoffset = -0.018352818278662;

% ===== SIMULATION ========

% Dimensions
TS = size(x1,2); % timesteps

% Input 1 Delay States
xd1 = mapminmax_apply(xi1,x1_step1);
xd1 = [xd1 zeros(1,1)];

% Allocate Outputs
y1 = zeros(1,TS);

% Time loop
for ts=1:TS

      % Rotating delay state position
      xdts = mod(ts+0,2)+1;
    
    % Input 1
    xd1(:,xdts) = mapminmax_apply(x1(:,ts),x1_step1);
    
    % Layer 1
    tapdelay1 = reshape(xd1(:,mod(xdts-1-1,2)+1),1,1);
    a1 = tansig_apply(b1 + IW1_1*tapdelay1);
    
    % Layer 2
    a2 = b2 + LW2_1*a1;
    
    % Output 1
    y1(:,ts) = mapminmax_reverse(a2,y1_step1);
end

% Final delay states
finalxts = TS+(1: 1);
xits = finalxts(finalxts<=1);
xts = finalxts(finalxts>1)-1;
xf1 = [xi1(:,xits) x1(:,xts)];
end

% ===== MODULE FUNCTIONS ========

% Map Minimum and Maximum Input Processing Function
function y = mapminmax_apply(x,settings)
  y = bsxfun(@minus,x,settings.xoffset);
  y = bsxfun(@times,y,settings.gain);
  y = bsxfun(@plus,y,settings.ymin);
end

% Sigmoid Symmetric Transfer Function
function a = tansig_apply(n,~)
  a = 2 ./ (1 + exp(-2*n)) - 1;
end

% Map Minimum and Maximum Output Reverse-Processing Function
function x = mapminmax_reverse(y,settings)
  x = bsxfun(@minus,y,settings.ymin);
  x = bsxfun(@rdivide,x,settings.gain);
  x = bsxfun(@plus,x,settings.xoffset);
end
