function [y1,xf1] = vft_three(x1,xi1)
%MYNEURALNETWORKFUNCTION neural network simulation function.
%
% Generated by Neural Network Toolbox function genFunction, 22-Nov-2017 22:07:01.
%
% [y1,xf1] = myNeuralNetworkFunction(x1,xi1) takes these arguments:
%   x1 = 1xTS matrix, input #1
%   xi1 = 1x12 matrix, initial 12 delay states for input #1.
% and returns:
%   y1 = 1xTS matrix, output #1
%   xf1 = 1x12 matrix, final 12 delay states for input #1.
% where TS is the number of timesteps.

% ===== NEURAL NETWORK CONSTANTS =====

% Input 1
x1_step1.xoffset = -0.0188342213156272;
x1_step1.gain = 50.7715190315153;
x1_step1.ymin = -1;

% Layer 1
b1 = [-1.2995147961867443698;-1.672140970054644793;0.036343973106664165251;-0.23296401637249686267;-1.680364906894603827];
IW1_1 = [0.35556611840478580255 -0.91204224819121004764 -0.28572966925068227217 0.19162498324781901404 0.32802448707583420351 -0.52041463055696890461 0.1157057670274524025 0.40738609388831537039 0.78887245164412400644 0.71886928035098485168 -0.30184554203676727813 -0.012309445569130040427;1.0088523108283675711 1.0174327518067456388 0.25787143232703074736 0.28630946822486735837 0.74041828456869029917 -0.19084984628272777529 0.29000190537703068872 0.20928057308628800204 -0.46460187249980489099 -0.51029519583129423488 0.24742542475584722306 -0.40757243548179705739;-0.29874846668334470445 -0.53982812188351014804 -0.10201105136155269593 -0.82117511850542590501 -0.1303436478135198695 -0.34926196499090106373 0.16347617345518314358 0.99638565346237417675 0.94375530654228756422 0.23808813450916130328 0.30975337996133883722 -0.48691896715230875703;2.1539725857501625939 0.78317405284016350375 1.2691377176880915822 -0.083101550903667872894 0.58403910232497280308 -0.34348558576359339289 0.19317937539600696373 -0.35863244726510895566 -0.29524435848736407806 -1.1143438734891857322 -0.36464919978400833767 -1.5857493159340141364;0.028356176529531432889 0.20556610966869476309 0.15256126494510749425 -0.30237937356786381837 0.78044695851693046684 0.60292953824774442317 -0.28767684093372586362 -0.55035747610174656774 -0.73424707080555418059 -0.1635814877474528195 0.58253699056520569233 0.27641958701134411447];

% Layer 2
b2 = -0.76725112551206742229;
LW2_1 = [-0.56089935962679293713 0.39487308091486522654 -1.1153151586506195869 -1.3887941462418706973 -0.25163976705517154819];

% Output 1
y1_step1.ymin = -1;
y1_step1.gain = 48.1944532056758;
y1_step1.xoffset = -0.018352818278662;

% ===== SIMULATION ========

% Dimensions
TS = size(x1,2); % timesteps

% Input 1 Delay States
xd1 = mapminmax_apply(xi1,x1_step1);
xd1 = [xd1 zeros(1,1)];

% Allocate Outputs
y1 = zeros(1,TS);

% Time loop
for ts=1:TS
    
    % Rotating delay state position
    xdts = mod(ts+11,13)+1;
    
    % Input 1
    xd1(:,xdts) = mapminmax_apply(x1(:,ts),x1_step1);
    
    % Layer 1
    tapdelay1 = reshape(xd1(:,mod(xdts-[1 2 3 4 5 6 7 8 9 10 11 12]-1,13)+1),12,1);
    a1 = tansig_apply(b1 + IW1_1*tapdelay1);
    
    % Layer 2
    a2 = b2 + LW2_1*a1;
    
    % Output 1
    y1(:,ts) = mapminmax_reverse(a2,y1_step1);
end

% Final delay states
finalxts = TS+(1: 12);
xits = finalxts(finalxts<=12);
xts = finalxts(finalxts>12)-12;
xf1 = [xi1(:,xits) x1(:,xts)];
end

% ===== MODULE FUNCTIONS ========

% Map Minimum and Maximum Input Processing Function
function y = mapminmax_apply(x,settings)
y = bsxfun(@minus,x,settings.xoffset);
y = bsxfun(@times,y,settings.gain);
y = bsxfun(@plus,y,settings.ymin);
end

% Sigmoid Symmetric Transfer Function
function a = tansig_apply(n,~)
a = 2 ./ (1 + exp(-2*n)) - 1;
end

% Map Minimum and Maximum Output Reverse-Processing Function
function x = mapminmax_reverse(y,settings)
x = bsxfun(@minus,y,settings.ymin);
x = bsxfun(@rdivide,x,settings.gain);
x = bsxfun(@plus,x,settings.xoffset);
end
