function [y1,xf1] = vft_egm_egm(x1,xi1)
%MYNEURALNETWORKFUNCTION neural network simulation function.
%
% Generated by Neural Network Toolbox function genFunction, 23-Nov-2017 15:27:32.
%
% [y1,xf1] = myNeuralNetworkFunction(x1,xi1) takes these arguments:
%   x1 = 1xTS matrix, input #1
%   xi1 = 1x10 matrix, initial 10 delay states for input #1.
% and returns:
%   y1 = 1xTS matrix, output #1
%   xf1 = 1x10 matrix, final 10 delay states for input #1.
% where TS is the number of timesteps.

% ===== NEURAL NETWORK CONSTANTS =====

% Input 1
x1_step1.xoffset = -0.040175869093982;
x1_step1.gain = 31.4666291480445;
x1_step1.ymin = -1;

% Layer 1
b1 = [-0.97514577997908580276;-1.4859456610983936553;1.0840523432524868941;0.65790681680026086298;-0.15814721608508844342;0.2821059399388758937;-0.33444049847412637977;-0.51539934507773776939;0.83109663666243160929;1.8547003654075884249];
IW1_1 = [1.5782700778914153794 -0.28899201394811402377 -0.45043983367968382092 -0.012225420766740468723 0.10226554667308702939 -0.64557180061483476763 0.25545726338614510587 0.14583043351057831116 -0.54879474641858350115 0.45841698603710356874;0.72278706518000246373 -0.67846786661519176143 -0.067269472295981888599 -0.83832166694803911255 0.30060576754044077141 0.029699976942470073665 -0.77014603906797418631 -0.40919076239405521855 -0.093378979710264486958 0.10754262588688166813;0.33924716261580889487 -0.58683897142731933361 0.33296337214405291594 -0.10518074837269082711 0.424467924831886112 -0.73469890868373222137 0.78625633386764204324 0.80388829627074820383 -0.5387661198035624821 0.34308198589986699245;-0.43369500837452629183 -0.061119630040566808038 0.59014307486382966417 0.16628167701401025402 -0.67733514551830908967 0.69263527811048641869 0.64595051537905590067 0.26531304133930866396 0.77219426249073319646 0.24199395180435220865;0.40902306937276006193 -0.33444981676037610629 0.61975193404284523169 -0.74586354439044111331 -0.41178170715494660792 0.73894596836208592538 -0.49625120559279212173 -0.55358016874748161573 -0.25739145459952372796 -0.49127926599210403058;0.24874891330912607401 -0.26098293170985098488 0.39962899919736227794 0.76734872319277980246 0.44124719060201078591 -0.71814890339921921836 -0.72166245132576811727 -0.070563870144345841595 -0.47543734816226651541 -0.54196867148502769762;-1.0369609565214992219 0.7895856404847065857 0.54086685425492142532 0.13907173837398309479 -0.74584106078648371163 -0.56774106012264946575 -0.32688472545339314346 0.13992253702281670646 0.36228695501821583935 0.12731943338953960465;-1.0359725729457138765 -0.14681326460268750989 0.27883094231426336362 -0.64686207900224956813 0.8386565468113612587 -0.32652262043293878158 0.73870881810972388593 -0.14737230253440150585 -0.15884123655297252564 -0.031586253295101548999;0.81497702482335920848 0.083519216774042989715 -0.0090811592667767084691 0.95571834844875602766 0.8194093258837001903 0.24263714536073155426 0.43516362502998851003 -0.56770486087625371407 -0.27654078200062437443 -0.55679998103590355729;0.16811844094685518547 0.19291481297138632356 -0.084259281938022581593 -0.55152147587549182894 0.19850166688678017035 -0.064979605067587875578 -0.79730468982505242614 0.89779081120880799283 -0.7058301981466773567 0.62975657502879822669];

% Layer 2
b2 = 0.40756362347006946933;
LW2_1 = [0.97107516267574245372 0.19852684050941207805 0.37375635158267400682 0.017292244619792805638 0.1159223310012835878 -0.1080881493774985963 -0.74186725216014060003 -0.79254008736440495486 -0.059470364997121737127 -0.35035591171623953199];

% Output 1
y1_step1.ymin = -1;
y1_step1.gain = 31.4666291480445;
y1_step1.xoffset = -0.040175869093982;

% ===== SIMULATION ========

% Dimensions
TS = size(x1,2); % timesteps

% Input 1 Delay States
xd1 = mapminmax_apply(xi1,x1_step1);
xd1 = [xd1 zeros(1,1)];

% Allocate Outputs
y1 = zeros(1,TS);

% Time loop
for ts=1:TS
    
    % Rotating delay state position
    xdts = mod(ts+9,11)+1;
    
    % Input 1
    xd1(:,xdts) = mapminmax_apply(x1(:,ts),x1_step1);
    
    % Layer 1
    tapdelay1 = reshape(xd1(:,mod(xdts-[1 2 3 4 5 6 7 8 9 10]-1,11)+1),10,1);
    a1 = tansig_apply(b1 + IW1_1*tapdelay1);
    
    % Layer 2
    a2 = b2 + LW2_1*a1;
    
    % Output 1
    y1(:,ts) = mapminmax_reverse(a2,y1_step1);
end

% Final delay states
finalxts = TS+(1: 10);
xits = finalxts(finalxts<=10);
xts = finalxts(finalxts>10)-10;
xf1 = [xi1(:,xits) x1(:,xts)];
end

% ===== MODULE FUNCTIONS ========

% Map Minimum and Maximum Input Processing Function
function y = mapminmax_apply(x,settings)
y = bsxfun(@minus,x,settings.xoffset);
y = bsxfun(@times,y,settings.gain);
y = bsxfun(@plus,y,settings.ymin);
end

% Sigmoid Symmetric Transfer Function
function a = tansig_apply(n,~)
a = 2 ./ (1 + exp(-2*n)) - 1;
end

% Map Minimum and Maximum Output Reverse-Processing Function
function x = mapminmax_reverse(y,settings)
x = bsxfun(@minus,y,settings.ymin);
x = bsxfun(@rdivide,x,settings.gain);
x = bsxfun(@plus,x,settings.xoffset);
end
