function [y1,xf1] = vft_best(x1,xi1)
%MYNEURALNETWORKFUNCTION neural network simulation function.
%
% Generated by Neural Network Toolbox function genFunction, 22-Nov-2017 14:57:24.
%
% [y1,xf1] = myNeuralNetworkFunction(x1,xi1) takes these arguments:
%   x1 = 1xTS matrix, input #1
%   xi1 = 1x15 matrix, initial 15 delay states for input #1.
% and returns:
%   y1 = 1xTS matrix, output #1
%   xf1 = 1x15 matrix, final 15 delay states for input #1.
% where TS is the number of timesteps.

% ===== NEURAL NETWORK CONSTANTS =====

% Input 1
x1_step1.xoffset = -0.0256672385576584;
x1_step1.gain = 32.5055655257756;
x1_step1.ymin = -1;

% Layer 1
b1 = [-2.1045848007122982537;-0.53408119727900693618];
IW1_1 = [-3.6740127819849277557 -3.0361819937117489054 -3.1532946509881383257 -2.1579350376630066499 -2.2849516125588396065 -1.2910185121946242681 -0.86863511935908788164 -0.80579007676725378229 -0.60319490856008917135 -0.11936611225693460892 0.90109305408519568825 1.3393544618676329616 2.5348232673185249197 1.9194464771734813802 3.051662283152598576;1.622017407390767163 0.63677631013062929721 1.2576861624788731042 0.86285301427006422248 -0.11151766412520208727 0.62457997889371275058 -0.14907006491087027023 -0.015264876456658480267 -0.46360349426455532695 -0.23125202737868788549 -0.99393750621324195027 -0.5416026042664998652 -0.47366757487416483174 -0.48533775244975990715 -1.3595256079962061424];

% Layer 2
b2 = 0.024751212294330443564;
LW2_1 = [0.16631502521291655072 -0.59014790938737937687];

% Output 1
y1_step1.ymin = -1;
y1_step1.gain = 31.4666291480445;
y1_step1.xoffset = -0.0400924944343296;

% ===== SIMULATION ========

% Dimensions
TS = size(x1,2); % timesteps

% Input 1 Delay States
xd1 = mapminmax_apply(xi1,x1_step1);
xd1 = [xd1 zeros(1,1)];

% Allocate Outputs
y1 = zeros(1,TS);

% Time loop
for ts=1:TS
    
    % Rotating delay state position
    xdts = mod(ts+14,16)+1;
    
    % Input 1
    xd1(:,xdts) = mapminmax_apply(x1(:,ts),x1_step1);
    
    % Layer 1
    tapdelay1 = reshape(xd1(:,mod(xdts-[1 2 3 4 5 6 7 8 9 10 11 12 13 14 15]-1,16)+1),15,1);
    a1 = tansig_apply(b1 + IW1_1*tapdelay1);
    
    % Layer 2
    a2 = b2 + LW2_1*a1;
    
    % Output 1
    y1(:,ts) = mapminmax_reverse(a2,y1_step1);
end

% Final delay states
finalxts = TS+(1: 15);
xits = finalxts(finalxts<=15);
xts = finalxts(finalxts>15)-15;
xf1 = [xi1(:,xits) x1(:,xts)];
end

% ===== MODULE FUNCTIONS ========

% Map Minimum and Maximum Input Processing Function
function y = mapminmax_apply(x,settings)
y = bsxfun(@minus,x,settings.xoffset);
y = bsxfun(@times,y,settings.gain);
y = bsxfun(@plus,y,settings.ymin);
end

% Sigmoid Symmetric Transfer Function
function a = tansig_apply(n,~)
a = 2 ./ (1 + exp(-2*n)) - 1;
end

% Map Minimum and Maximum Output Reverse-Processing Function
function x = mapminmax_reverse(y,settings)
x = bsxfun(@minus,y,settings.ymin);
x = bsxfun(@rdivide,x,settings.gain);
x = bsxfun(@plus,x,settings.xoffset);
end
